3E9017E
0FFFFF6
2C1010C
29D00EF
35101D2
3820128
2BAFFA2
3B7FEAC
0D00124
0A90143
324FFB7
10FFF5B
3C10120
0F10133
0F6FFD4
185015A
103FEF7
1C3FF2A
3820136
132FF35
147FF81
15CFF4E
197FF49
0F3FFDC
1120139
3E3FE94
332FEE0
120FEDF
15600E2
2C4011F
3E3FECD
2D5FE94

